1111111110101110000100100101011010111100
1111111101001100000110001001011111111101
0000000011001101011110100101011000000110
1111111100100000111011000000011110010110
0000000000101010110111111111000111111101
1111111110011001110001010011101110110101
0000000010100011001011110110101001110001
1111111110000110000001110111011010100010
0000000011101011010000100111011111110100
0000000011011101111110001001110010111000
0000000001100000110101110011000000101111
0000000011111111101001111110000100111110
0000000000001100111100101111100001000100
1111111111000100111101010001111100000110
0000000010000110101110111001010001001001
1111111101001101110101001101100001110110
1111111110100111111100100111110110110100
0000000010001110101011011001000001100100
1111111110110101101100011111101000001000
1111111111011000010101101000101111011011
0000000001000101100011011010111000100100
1111111111010100100110110101100110010110
1111111111100100011101010001000010100011
1111111101100111001110110000111001111011
1111111101101000100101001110100111101001
0000000011011010111101100110001101000110
0000000010000110110011000100010111101101
1111111111101100001100111110100100001011
1111111101110001111001010110110100100111
1111111111000010001001101101100100001100
1111111110111010001010111111100110011101
1111111101011011001001000010110011101001
0000000000000101010011001010011101101101
1111111111111100011111101010101010000100
1111111101001100111101010001001111011011
0000000010000001001011001110011110111011
0000000001111100000011110101011100000101
0000000001010110000101101101000101001010
0000000000010011100000101001111011110010
0000000000110000000011111100110110111010
1111111110001101010000111101100110100110
0000000011100100110001001010111101001011
1111111110111010101010111111100001110110
1111111110100001111110000111000101110000
1111111101000110111100010110110101000000
0000000011110000100101010010010010110011
1111111100100000100000110010011010001110
1111111110111000010000001100100111011011
1111111101111100001010100110110001000010
1111111111101111011100110111001101100011
0000000001111101101011100000000101000110
1111111110100011101101111011010111100001
1111111111110010000110111110100001100100
1111111110110011010001000110010000100111
1111111101100110010101011110000011111011
1111111101100100011010111100110001001110
0000000010100001010110011101101100110101
0000000010111010101000101101011101011011
1111111101101011100100111010010000111001
0000000011110111110000111110010101100000
1111111111100101010111100000101100011101
0000000000000110010000011101100100111001
1111111111011101011000110001111000110010
0000000000011001100000100011111011110101
0000000011010111000010010000111100101001
1111111110010011100111010000000010000010
0000000000100110100010001110111011111111
1111111110000000110111011010100111010110
0000000010111001100011011101110001010110
1111111111011000111011010111000000110000
1111111100101011001110110100000000110001
0000000000010110011011111001110000001101
1111111111110011101110101110100011111000
0000000010011100001011010100010101100011
0000000010100111000001000100101100110111
0000000001101100101010010111111110010011
1111111101110010100101000100011100010000
0000000001100011001110000011100000110101
1111111111100110000100110110000001110010
0000000011011000011101100100111100011010
1111111101011010100111010011111111111111
1111111110110111010000011011011010010011
1111111101101110111100100111010000100001
1111111100100001010100001010111111000111
1111111111010101110111110010010010001110
1111111110100010101101101000000111000100
0000000010011101011100001101001110010110
1111111110101000100000111110010000100000
1111111110001111111000100101100100111011
0000000001000001000100011110001110011100
1111111101001111011110000111011001010000
0000000000010000010111100001101011110010
0000000010010100010011011111110111010010
0000000001001010010010011010001110101111
1111111100101011011110001011011101111000
0000000010110010100010011110110110001010
1111111111111101100010110111000011110011
1111111111000010011101101111011110100000
1111111111011011110111011000011110111011
1111111110011110101101111000001000011110
