0000000011111101011001001101101111100111
0000000011001011110110011100010010101001
0000000011110110010011101111010110010110
0000000011001011011010001110011010101001
0000000010001100011110110100110000010001
0000000010100011100010110100110010100100
0000000011000101110011111101111100111100
0000000001010100110111111011011001000100
0000000011101011111010011000110111100010
0000000001011110111010101010110110010011
0000000001110101110111011000000100011010
0000000011100000011101011101011000010100
0000000011001010100001000000101110110100
0000000011011001011111011101001010010101
0000000000000011010110100110100110100000
0000000000001111101111011110000001000101
0000000001110101000010010011000101101011
0000000011011010010011101100010111001101
0000000010110110010000010111011001101100
0000000011101011111110000011110010000101
0000000000100111111100000010110000110010
0000000011010001001110011101101011110111
0000000000001111001010100011100100001011
0000000011110111100001111110010011011000
0000000011111100100110100111101111010100
0000000011001010001110010010000000000100
0000000001011111000001110100110000101101
0000000001000111010100010010000000111101
0000000001100111001101100111110000000110
0000000011101000000001000111101110110011
0000000011000100010001000000000011101100
0000000010001000001100101111011001100111
0000000010001001110010000110100100101001
0000000010111010011111000110110011110011
0000000001001101100001001011101011011011
0000000001010001011110001000111100110011
0000000010110000111000011100111101111000
0000000010000111000001100110111010101000
0000000001110111001111100000100001111111
0000000000111110010001101110100001010001
0000000001111000000100110011101100011011
0000000000011101010100111010000001011000
0000000010100110110100101100111101111100
0000000001101011011000001000101010111100
0000000011110100110100110111000001001111
0000000000101000100100110101011001001111
0000000010010011010010000111000111010101
0000000011100110100001111010100010001110
0000000000100110000111010100000100010100
0000000000100000101101001010000001111110
0000000001010000010000011111111010101001
0000000010111010101000101011011011001100
0000000000001110011001001110011101110010
0000000011111100001110110011101100010000
0000000010100000100011010111011101100001
0000000000010000000001111101110001011011
0000000000110110010001010111001011011010
0000000001101010011110010001011010010100
0000000011101000001000111100011111110110
0000000010000110010111010001000000110010
0000000010010010111110111110101110100111
0000000001101011011001011011101010001000
0000000011001010011011010111110100001110
0000000011101011110110001011100000101111
0000000011101011101001011011011010011110
0000000010010110010110011011110001111010
0000000010001000100011010010001101101111
0000000010101110110101111010011011110101
0000000011110011100101110110010001001100
0000000001110001000110111110111111010011
0000000000111011110110110001001101111011
0000000010111011100011010001101011110001
0000000010100100100000010110110000011110
0000000000000111001011010111011001101101
0000000001011110101001100101010111000011
0000000010100001000110101011010110011100
0000000011100110100111010110110101011011
0000000011000011111000101000111110010011
0000000000100111000111000101000000110110
0000000011100111111101110111100100001011
0000000001001000111111000010000011010100
0000000011100110111001110000010101101100
0000000000011100001001110111110110010010
0000000000001111010001101100011111000000
0000000000010101001110111001001001001000
0000000011011010100111110100111001100101
0000000000011001100111101011100111011000
0000000001010001101010000010110111000010
0000000001111100111010000100011001010010
0000000001110100000111000100001011111110
0000000000101010110000100011101110000000
0000000001110010111100010001110001001000
0000000011111101110011111111101010010000
0000000010010001010101010000011100111000
0000000010101011000011001101011000000001
0000000001010110001100111110010110010011
0000000000011110000011101100101101001011
0000000010100101111000011110110010010111
0000000000101000011001011001001101000001
0000000000110110000010100110011000000011
