0000000000000010101010111111000000100010
1111111111111010110000001000100101101010
1111111111111111111001000101001000100101
0000000000000011100011110100111001100011
1111111111111111100001000000000110000011
1111111111111111001010100000110001011110
0000000000000010101010001011001010110100
0000000000111011101011101001100110000110
1111111111110111100001011110010111101111
1111111111111101111111011011001100001101
0000000000000011011011101100000010010011
0000000000000011100011100110100101101001
0000000001010101011010011110110010000011
0000000000110000011010101001101111010101
0000000000000011111000010101000000100011
1111111111111101010101011110110110101010
0000000000000101100111100111101111001110
1111111111010001110110111111110111000010
0000000000000000110110110111001101101011
0000000001000101011100010110010101110011
1111111111100011010110010010000011011001
1111111111111010101000100001001000111001
1111111111101011010110110100110101011001
1111111111011101111010110001100000010001
1111111111111011100011110100110100001111
1111111111001010110010000010100101111010
1111111111100110010010100101111001001000
1111111111111001100110101111001010001110
1111111111101010111101111010010010010010
1111111111111000110011110110101111111001
