010001100000000101100011100101100
001000110011101001101011111101100
010000000100111000010001111000110
011100011110111111111110001101100
001100010011001010001010100101111
000110011001100100100111010001110
011000110111010110100011010111000
010110101110000001110100100001010
001100000110110011111111100111011
000101111111000101010000000110001
000101010111010111111110110100011
010010100010110000011001011011111
000101000100011100011001100001000
011100101110111000000101100001100
001010101100010110100110000111110
010111001111010100111001110100010
011011111011101000011011001101001
010000000101011010100110100010100
011001011100010010101111001111010
011001001010010010100101111111110
000010110000110011010011010101010
000110111101000011110010000010110
000001100010000110110010111100101
010010100110110111001111101110011
011100111100100010111111110011101
010011011111110100110011101110111
001101111100100000111111011001101
010010100010100100000111011100100
000100110111000000101001101001110
010101100011011001110110111111100
011001010001100110010001110101111
001110000110001100001001110001100
010000011110100000111000110010010
000000010110110101111001011111110
000100010001011110001111110011101
001001100100011100011000101111111
010001110101100000100101111100101
001011111000100111010001111001110
010101100001010110111001101101101
000000111011111101010101011000100
001100010111001001100100011000101
010111111000011001101100011011101
001011111110101101110100001011111
011101011111011000011011111110001
011111000011010001000010010011110
010100010100011101010101010110010
001001011001000101010010000101001
001011111011001001100101000011111
000100111000001011001111001010000
011010111111100101000101011010101
011100101000100111010001001001101
010011000010000100100101011101010
000101000001001010000010111101100
010001011101101010101001110110111
011010101110111001101111111100101
010111010101000101010111110110101
011101000110010110011110010001111
010011001101001011001110011110011
000000101011100110010100100110010
000101100011100010011011101100010
010100010110000011111100000011010
001001011010111010110000001101000
000010000111010101101101010001000
000011011100000110000100010101101
000000001011100011000100011011110
000001001101010010101010100001110
010110010101000111000010000100111
000111000000110001001010101111011
001001100011100010110011101111001
001101011010101010111110011110110
010100001001001000111001101000001
010110110111010000100001111011001
001001001100110011101011101101101
001101111010010111100110001111010
011010001101111010110001001000101
000100100001001100011100110111101
010101000001011111100011111010101
010111101010101000010001010010001
000001010100010100010101110100101
010010001100001010100110010011101
000100001101000111001101001011001
011001101101010101110000110011101
000101100100011010111101000011010
001110000111100000100110100001111
011001001010111001100101001010101
000001001100000110011101100101100
011000111110101111100001000001100
000111110010111010010000110001110
010001011011011000010001001100001
000001011011000111000011101011001
001000000111000110101010101001110
010111011010000101110000110100101
011111101001010011010010111010100
001010011100101111110000101010001
011010000111111110011100101100100
010110100110111000001110011110110
001110101100000001000111110001100
001111001100001001110000011000110
000001111010011110101111000111010
000010001011011101110000110100011
